#ifndef IDLE_SWING_MODEL_DATA_H
#define IDLE_SWING_MODEL_DATA_H

// AUTO-GENERATED TFLITE MODEL DATA

const unsigned char idle_swing_model_data[] = {
  0x20, 0x00, 0x00, 0x00, 0x54, 0x46, 0x4c, 0x33, 0x00, 0x00, 0x00, 0x00,
  0x14, 0x00, 0x20, 0x00, 0x1c, 0x00, 0x18, 0x00, 0x14, 0x00, 0x10, 0x00,
  0x0c, 0x00, 0x00, 0x00, 0x08, 0x00, 0x04, 0x00, 0x14, 0x00, 0x00, 0x00,
  0x1c, 0x00, 0x00, 0x00, 0x88, 0x00, 0x00, 0x00, 0x08, 0x01, 0x00, 0x00,
  0x50, 0x07, 0x00, 0x00, 0x60, 0x07, 0x00, 0x00, 0xc8, 0x0d, 0x00, 0x00,
  0x03, 0x00, 0x00, 0x00, 0x01, 0x00, 0x00, 0x00, 0x04, 0x00, 0x00, 0x00,
  0x5e, 0xf8, 0xff, 0xff, 0x0c, 0x00, 0x00, 0x00, 0x1c, 0x00, 0x00, 0x00,
  0x3c, 0x00, 0x00, 0x00, 0x0f, 0x00, 0x00, 0x00, 0x73, 0x65, 0x72, 0x76,
  0x69, 0x6e, 0x67, 0x5f, 0x64, 0x65, 0x66, 0x61, 0x75, 0x6c, 0x74, 0x00,
  0x01, 0x00, 0x00, 0x00, 0x04, 0x00, 0x00, 0x00, 0x6c, 0xff, 0xff, 0xff,
  0x09, 0x00, 0x00, 0x00, 0x04, 0x00, 0x00, 0x00, 0x08, 0x00, 0x00, 0x00,
  0x6f, 0x75, 0x74, 0x70, 0x75, 0x74, 0x5f, 0x30, 0x00, 0x00, 0x00, 0x00,
  0x01, 0x00, 0x00, 0x00, 0x04, 0x00, 0x00, 0x00, 0x6a, 0xf8, 0xff, 0xff,
  0x04, 0x00, 0x00, 0x00, 0x0b, 0x00, 0x00, 0x00, 0x69, 0x6e, 0x70, 0x75,
  0x74, 0x5f, 0x6c, 0x61, 0x79, 0x65, 0x72, 0x00, 0x03, 0x00, 0x00, 0x00,
  0x5c, 0x00, 0x00, 0x00, 0x2c, 0x00, 0x00, 0x00, 0x04, 0x00, 0x00, 0x00,
  0xb8, 0xff, 0xff, 0xff, 0x0d, 0x00, 0x00, 0x00, 0x04, 0x00, 0x00, 0x00,
  0x13, 0x00, 0x00, 0x00, 0x43, 0x4f, 0x4e, 0x56, 0x45, 0x52, 0x53, 0x49,
  0x4f, 0x4e, 0x5f, 0x4d, 0x45, 0x54, 0x41, 0x44, 0x41, 0x54, 0x41, 0x00,
  0xdc, 0xff, 0xff, 0xff, 0x0c, 0x00, 0x00, 0x00, 0x04, 0x00, 0x00, 0x00,
  0x13, 0x00, 0x00, 0x00, 0x6d, 0x69, 0x6e, 0x5f, 0x72, 0x75, 0x6e, 0x74,
  0x69, 0x6d, 0x65, 0x5f, 0x76, 0x65, 0x72, 0x73, 0x69, 0x6f, 0x6e, 0x00,
  0x08, 0x00, 0x0c, 0x00, 0x08, 0x00, 0x04, 0x00, 0x08, 0x00, 0x00, 0x00,
  0x0b, 0x00, 0x00, 0x00, 0x04, 0x00, 0x00, 0x00, 0x13, 0x00, 0x00, 0x00,
  0x6d, 0x69, 0x6e, 0x5f, 0x72, 0x75, 0x6e, 0x74, 0x69, 0x6d, 0x65, 0x5f,
  0x76, 0x65, 0x72, 0x73, 0x69, 0x6f, 0x6e, 0x00, 0x0e, 0x00, 0x00, 0x00,
  0x44, 0x06, 0x00, 0x00, 0x3c, 0x06, 0x00, 0x00, 0x24, 0x06, 0x00, 0x00,
  0xd4, 0x05, 0x00, 0x00, 0x44, 0x05, 0x00, 0x00, 0xd4, 0x00, 0x00, 0x00,
  0xcc, 0x00, 0x00, 0x00, 0xc4, 0x00, 0x00, 0x00, 0xbc, 0x00, 0x00, 0x00,
  0xb4, 0x00, 0x00, 0x00, 0xac, 0x00, 0x00, 0x00, 0x8c, 0x00, 0x00, 0x00,
  0x6c, 0x00, 0x00, 0x00, 0x04, 0x00, 0x00, 0x00, 0x42, 0xf9, 0xff, 0xff,
  0x04, 0x00, 0x00, 0x00, 0x58, 0x00, 0x00, 0x00, 0x0c, 0x00, 0x00, 0x00,
  0x08, 0x00, 0x0e, 0x00, 0x08, 0x00, 0x04, 0x00, 0x08, 0x00, 0x00, 0x00,
  0x10, 0x00, 0x00, 0x00, 0x28, 0x00, 0x00, 0x00, 0x00, 0x00, 0x06, 0x00,
  0x08, 0x00, 0x04, 0x00, 0x06, 0x00, 0x00, 0x00, 0x04, 0x00, 0x00, 0x00,
  0x01, 0x00, 0x00, 0x00, 0xeb, 0x03, 0x00, 0x00, 0x00, 0x00, 0x0a, 0x00,
  0x10, 0x00, 0x0c, 0x00, 0x08, 0x00, 0x04, 0x00, 0x0a, 0x00, 0x00, 0x00,
  0x01, 0x00, 0x00, 0x00, 0x02, 0x00, 0x00, 0x00, 0x04, 0x00, 0x00, 0x00,
  0x06, 0x00, 0x00, 0x00, 0x32, 0x2e, 0x31, 0x36, 0x2e, 0x32, 0x00, 0x00,
  0xa6, 0xf9, 0xff, 0xff, 0x04, 0x00, 0x00, 0x00, 0x10, 0x00, 0x00, 0x00,
  0x00, 0x00, 0x00, 0x00, 0x00, 0x00, 0x00, 0x00, 0x00, 0x00, 0x00, 0x00,
  0x00, 0x00, 0x00, 0x00, 0xc2, 0xf9, 0xff, 0xff, 0x04, 0x00, 0x00, 0x00,
  0x10, 0x00, 0x00, 0x00, 0x31, 0x2e, 0x31, 0x34, 0x2e, 0x30, 0x00, 0x00,
  0x00, 0x00, 0x00, 0x00, 0x00, 0x00, 0x00, 0x00, 0x44, 0xf4, 0xff, 0xff,
  0x48, 0xf4, 0xff, 0xff, 0x4c, 0xf4, 0xff, 0xff, 0x50, 0xf4, 0xff, 0xff,
  0x54, 0xf4, 0xff, 0xff, 0xf2, 0xf9, 0xff, 0xff, 0x04, 0x00, 0x00, 0x00,
  0x60, 0x04, 0x00, 0x00, 0xbc, 0x1c, 0xb7, 0xd6, 0x27, 0xea, 0x1f, 0xba,
  0xbf, 0x3f, 0xe8, 0x0a, 0xf2, 0xea, 0xee, 0x53, 0xec, 0xfd, 0x1b, 0xb9,
  0xf5, 0x37, 0xdd, 0xf9, 0xfd, 0xee, 0xe4, 0xee, 0x0c, 0x27, 0xc5, 0xc6,
  0xff, 0xf6, 0xce, 0x59, 0x5c, 0x62, 0xfc, 0x5b, 0x57, 0x42, 0x6b, 0x5f,
  0xb8, 0x1b, 0x13, 0x56, 0x5a, 0x54, 0xb4, 0x62, 0x43, 0xea, 0x20, 0x0e,
  0x15, 0x5f, 0x69, 0xd3, 0x25, 0x4a, 0x2b, 0x6b, 0xcc, 0x1d, 0x1f, 0xd8,
  0x54, 0x06, 0x55, 0x6e, 0x45, 0xf4, 0x28, 0x1e, 0x1a, 0x62, 0x31, 0xc3,
  0x4c, 0xd1, 0x47, 0x4d, 0x5f, 0x16, 0x25, 0x3e, 0x08, 0x47, 0xe4, 0xfd,
  0x6d, 0x29, 0xfc, 0x22, 0x3c, 0x29, 0x67, 0x9c, 0x00, 0x09, 0xb6, 0x25,
  0x0a, 0x22, 0x23, 0x4d, 0x31, 0x22, 0x1c, 0x3a, 0x3b, 0x40, 0xa6, 0xec,
  0x07, 0x0b, 0xf7, 0xff, 0x3d, 0x33, 0x40, 0x0d, 0x59, 0x3b, 0x4f, 0x21,
  0x15, 0x43, 0x05, 0x23, 0x36, 0x2d, 0xb4, 0x07, 0x19, 0xd3, 0xfe, 0x02,
  0x1f, 0x15, 0x11, 0x13, 0xf0, 0xdd, 0x14, 0xfd, 0xec, 0x03, 0x14, 0xef,
  0xe9, 0xd7, 0x1a, 0x1b, 0xcd, 0x00, 0x2b, 0x0f, 0xf8, 0x09, 0xd4, 0x1c,
  0xf0, 0xf3, 0x0f, 0xe8, 0x0c, 0xf4, 0x23, 0xff, 0xfe, 0x04, 0xf7, 0xc9,
  0x02, 0x30, 0x1d, 0x0f, 0x10, 0x1b, 0xf5, 0xe0, 0xfa, 0xe5, 0x18, 0xe9,
  0xda, 0x11, 0xfe, 0x0e, 0x1d, 0x24, 0x04, 0x04, 0xff, 0xe2, 0x0f, 0xe6,
  0xd8, 0x20, 0xe4, 0x17, 0xfc, 0xf9, 0x1a, 0x01, 0xdd, 0xeb, 0xe7, 0x0a,
  0xfe, 0xec, 0xec, 0xf8, 0x0a, 0xd5, 0x17, 0x0f, 0x01, 0xeb, 0x0a, 0xe7,
  0xf8, 0x0a, 0x21, 0x01, 0xf1, 0x18, 0x18, 0x17, 0x24, 0x01, 0x14, 0xbc,
  0xf5, 0x11, 0xf5, 0x07, 0x31, 0xfa, 0xea, 0xf9, 0x17, 0x24, 0x5c, 0x36,
  0x64, 0x45, 0x0e, 0x3c, 0x4d, 0x13, 0xbd, 0x47, 0x36, 0x11, 0x16, 0x2d,
  0xef, 0x0d, 0x49, 0x1d, 0x40, 0x1e, 0xe2, 0x5d, 0x42, 0x04, 0x3e, 0x21,
  0x06, 0x08, 0xba, 0x41, 0x39, 0xd0, 0x4b, 0x2e, 0xd9, 0xdc, 0xfe, 0xf3,
  0x0e, 0xe9, 0x09, 0xff, 0x22, 0x0e, 0x02, 0xf7, 0xfc, 0x06, 0xf0, 0xf0,
  0x22, 0xf0, 0xf5, 0xf4, 0xed, 0xf6, 0x14, 0x13, 0x11, 0xe0, 0x15, 0x19,
  0xff, 0x09, 0xf5, 0x11, 0xf1, 0xfc, 0x06, 0xd5, 0xdc, 0x00, 0xf9, 0xe1,
  0xeb, 0x02, 0xe9, 0xd7, 0x43, 0xc8, 0x11, 0xea, 0xb3, 0xe6, 0x05, 0xf4,
  0xb6, 0xfd, 0xf3, 0xaa, 0xb0, 0x00, 0xc4, 0xe1, 0xd8, 0xdd, 0xb9, 0xd5,
  0x45, 0xb6, 0xba, 0xfe, 0xd8, 0xe1, 0x27, 0xe6, 0xe2, 0xeb, 0xd9, 0xc7,
  0xfc, 0xf0, 0x0b, 0x13, 0xf7, 0xf2, 0xf2, 0xfa, 0x10, 0xef, 0x00, 0xfc,
  0x04, 0x2e, 0x15, 0x11, 0xfd, 0x19, 0x20, 0xfb, 0x12, 0x33, 0xfd, 0xff,
  0x12, 0xe5, 0xf4, 0x1c, 0xf4, 0xcd, 0xac, 0xd9, 0xb4, 0xcd, 0xdb, 0xc2,
  0xa8, 0xda, 0x29, 0xf3, 0xe6, 0xc4, 0xe9, 0xb1, 0xe1, 0xa8, 0xae, 0xd2,
  0xc0, 0xd1, 0xe1, 0xbe, 0xac, 0x01, 0xb7, 0xe6, 0x01, 0xc4, 0x24, 0xe0,
  0xf8, 0x33, 0xd6, 0xd3, 0x61, 0x62, 0x59, 0x10, 0x44, 0x35, 0x6e, 0x6c,
  0x61, 0xe2, 0x1c, 0x0f, 0x4b, 0x4a, 0x5a, 0xc8, 0x2c, 0x28, 0xe7, 0x51,
  0x37, 0x39, 0x31, 0x42, 0xdd, 0xfe, 0x42, 0x25, 0x52, 0xc6, 0x09, 0x40,
  0xf5, 0x34, 0x38, 0x32, 0x5d, 0x1c, 0x4d, 0x2f, 0x0a, 0x1f, 0x40, 0x49,
  0xbf, 0x07, 0x1c, 0x56, 0x56, 0x2c, 0x1b, 0x53, 0x5e, 0xee, 0x5f, 0x20,
  0x1a, 0x3d, 0x0f, 0x08, 0x03, 0x4c, 0x49, 0x67, 0xd5, 0x52, 0x2c, 0x23,
  0x33, 0xd7, 0x05, 0x08, 0xe6, 0x1d, 0xd6, 0x00, 0xec, 0x05, 0xdd, 0x12,
  0xef, 0xf5, 0x2e, 0xfc, 0xe1, 0xfb, 0x1d, 0xe7, 0x0d, 0xf1, 0xfd, 0x0a,
  0xf3, 0x17, 0xdd, 0x16, 0xeb, 0x0c, 0x27, 0xdb, 0xe0, 0x03, 0x1b, 0xfd,
  0xd5, 0xe9, 0xc9, 0xe8, 0xd1, 0xcf, 0x0a, 0xbb, 0xf2, 0xe5, 0x4f, 0xb9,
  0xf7, 0xd5, 0xe5, 0xe0, 0x49, 0xc1, 0xaf, 0x1f, 0xe5, 0xd8, 0xeb, 0xda,
  0xf6, 0x2d, 0x1e, 0xbe, 0xf7, 0xae, 0x00, 0xe9, 0xc5, 0xf0, 0xc5, 0xe7,
  0xbd, 0xb2, 0xca, 0xf7, 0xd8, 0x0a, 0xd6, 0xb6, 0x01, 0x58, 0xa9, 0x24,
  0xf9, 0xd9, 0xe2, 0x2c, 0xbf, 0xfc, 0xf0, 0xd8, 0xc5, 0xe6, 0xb5, 0xab,
  0xf3, 0xdc, 0xb8, 0xcf, 0xa6, 0x60, 0xff, 0x14, 0x07, 0xab, 0x24, 0xba,
  0xcc, 0xd1, 0xc9, 0xce, 0xf6, 0xac, 0xb3, 0xce, 0x3b, 0xa4, 0xd2, 0xee,
  0x0b, 0xf9, 0x59, 0xe8, 0xe8, 0xf7, 0xfd, 0xe6, 0xb8, 0xaf, 0xc9, 0x2f,
  0x0c, 0xcf, 0xd8, 0xe3, 0x4d, 0xd1, 0xac, 0x0a, 0xad, 0xf9, 0xcd, 0xed,
  0x11, 0xed, 0xce, 0xdc, 0x12, 0xd6, 0xff, 0x15, 0x21, 0xf3, 0xfa, 0xf7,
  0x02, 0xe4, 0x3a, 0x0a, 0x0d, 0x06, 0x16, 0x08, 0x16, 0x19, 0x1e, 0xe3,
  0xf1, 0x1c, 0x23, 0xe2, 0xf3, 0x10, 0x2b, 0xd6, 0xe9, 0x04, 0x1f, 0xdf,
  0xf7, 0xee, 0xe5, 0xfd, 0x04, 0x1c, 0xf3, 0xf3, 0x08, 0xf5, 0x08, 0x09,
  0xf7, 0xf8, 0xf4, 0xfb, 0x27, 0xec, 0xfc, 0x1a, 0xf9, 0x05, 0x02, 0x11,
  0xf2, 0x07, 0x02, 0xee, 0x05, 0x0f, 0x0d, 0x03, 0x62, 0x66, 0x41, 0x14,
  0x3b, 0x5a, 0x70, 0x5a, 0x75, 0xae, 0x21, 0xba, 0x3e, 0x63, 0x6f, 0xfa,
  0x50, 0x21, 0x14, 0x61, 0x1a, 0x38, 0x48, 0x7f, 0x26, 0x1d, 0x16, 0x3e,
  0x69, 0x8e, 0x23, 0x71, 0x15, 0x34, 0x20, 0x2e, 0x5b, 0x59, 0x60, 0x09,
  0x26, 0x55, 0x2a, 0x2a, 0xab, 0x48, 0xef, 0x37, 0x4f, 0x31, 0xdd, 0x61,
  0x26, 0x10, 0x3b, 0x4a, 0x05, 0x56, 0x24, 0xde, 0x2e, 0x17, 0x05, 0x4e,
  0xae, 0x07, 0x3b, 0x07, 0x24, 0x22, 0xee, 0x00, 0xff, 0x06, 0xe5, 0x11,
  0x02, 0xf7, 0x07, 0x23, 0xe6, 0x08, 0x0e, 0xe2, 0xe2, 0x02, 0x2e, 0x13,
  0x1f, 0x04, 0xf0, 0xf4, 0xf8, 0x00, 0xee, 0xdf, 0x04, 0xfd, 0x1a, 0xdd,
  0xe7, 0x27, 0x03, 0xec, 0xe6, 0x3f, 0x40, 0x0b, 0x60, 0x2e, 0x4d, 0x61,
  0x54, 0x11, 0xe4, 0x34, 0xf8, 0x51, 0x31, 0x3f, 0xd2, 0x43, 0x1f, 0x2c,
  0x5a, 0x40, 0x2c, 0x5b, 0x5c, 0xf1, 0x1d, 0x20, 0x11, 0x21, 0xbe, 0x44,
  0x16, 0xe8, 0x4a, 0x1b, 0x00, 0xdc, 0xea, 0xfb, 0xe1, 0x0f, 0xfe, 0xfe,
  0x15, 0xe4, 0xf6, 0x0e, 0xe8, 0xe5, 0xed, 0xf4, 0x07, 0x12, 0xf6, 0xf4,
  0x05, 0x03, 0x00, 0xf9, 0xd8, 0xff, 0xe3, 0x16, 0x16, 0xec, 0xea, 0x16,
  0xeb, 0x08, 0x00, 0xed, 0xef, 0xf0, 0x05, 0x16, 0xe1, 0x0b, 0x0f, 0x00,
  0xdb, 0x13, 0xf5, 0xe3, 0xfb, 0xd5, 0xef, 0xf7, 0xff, 0x12, 0xef, 0x17,
  0x19, 0x0e, 0xef, 0xfd, 0xf1, 0x06, 0x0d, 0xeb, 0xde, 0x04, 0x08, 0x2e,
  0x1b, 0xfb, 0xb2, 0xcc, 0xf8, 0xa5, 0xb7, 0x0c, 0xe4, 0xc7, 0xf8, 0x18,
  0xb8, 0x10, 0xf0, 0xc3, 0xc9, 0xda, 0xfc, 0xce, 0xc3, 0xdb, 0xd4, 0xbd,
  0xb8, 0xad, 0xe1, 0xda, 0xe3, 0xbe, 0xdd, 0x4b, 0xc8, 0xca, 0x48, 0xc0,
  0xeb, 0xdf, 0x0e, 0xed, 0x2e, 0x1e, 0x07, 0x1a, 0x04, 0xf8, 0x01, 0x27,
  0x05, 0x0c, 0x1c, 0xdd, 0x0f, 0xfa, 0x02, 0x20, 0xf6, 0xf2, 0x13, 0xef,
  0xe4, 0xeb, 0x04, 0x10, 0xce, 0xfa, 0xdc, 0x09, 0xf8, 0x1c, 0xf9, 0x07,
  0xf6, 0xed, 0xf9, 0xfc, 0xf9, 0x1a, 0x13, 0xe2, 0xf3, 0x02, 0x21, 0x06,
  0xf3, 0x00, 0x20, 0x0b, 0x1c, 0x30, 0x1d, 0xfd, 0x18, 0xf9, 0xff, 0xe0,
  0x0f, 0xce, 0x2f, 0xee, 0x12, 0x27, 0xfb, 0x25, 0xf8, 0xd3, 0xfb, 0x1a,
  0x11, 0xf2, 0xeb, 0xe0, 0x07, 0x0f, 0xf1, 0x20, 0x1a, 0xe5, 0x03, 0xde,
  0xf6, 0xdc, 0xe5, 0x26, 0x17, 0x09, 0x00, 0xfe, 0xfd, 0x20, 0xe6, 0x17,
  0xfc, 0xdf, 0xfc, 0xf9, 0xdb, 0x00, 0x06, 0xf8, 0x24, 0x14, 0xd7, 0xdb,
  0x0d, 0x9c, 0xc3, 0x0b, 0xa0, 0xf6, 0x0f, 0x51, 0xba, 0x1b, 0xc2, 0xc2,
  0xc4, 0xd5, 0xf9, 0xc5, 0x25, 0x08, 0x11, 0x01, 0xdf, 0xb4, 0xe3, 0xc7,
  0xce, 0x07, 0xc8, 0x11, 0xc1, 0xdc, 0x3a, 0x04, 0x3c, 0xeb, 0x12, 0x08,
  0x24, 0x14, 0x12, 0xfa, 0xe0, 0xfa, 0x03, 0x0f, 0x07, 0x11, 0xfa, 0xd1,
  0xfb, 0x02, 0x11, 0x0b, 0xf3, 0x0a, 0x00, 0x09, 0x03, 0xee, 0x12, 0xfb,
  0x01, 0xfd, 0xe6, 0xf1, 0xf4, 0x17, 0xd9, 0xdb, 0x5e, 0xfe, 0xff, 0xff,
  0x04, 0x00, 0x00, 0x00, 0x80, 0x00, 0x00, 0x00, 0x02, 0x0b, 0x00, 0x00,
  0x47, 0x0c, 0x00, 0x00, 0xbb, 0x0a, 0x00, 0x00, 0x0a, 0x08, 0x00, 0x00,
  0x02, 0xf8, 0xff, 0xff, 0xd2, 0xf2, 0xff, 0xff, 0x2d, 0xf8, 0xff, 0xff,
  0x65, 0x08, 0x00, 0x00, 0x54, 0xf7, 0xff, 0xff, 0x42, 0x08, 0x00, 0x00,
  0x65, 0xf9, 0xff, 0xff, 0x65, 0x09, 0x00, 0x00, 0x87, 0x0a, 0x00, 0x00,
  0xde, 0x08, 0x00, 0x00, 0x7b, 0xf4, 0xff, 0xff, 0xe7, 0x08, 0x00, 0x00,
  0x5c, 0x09, 0x00, 0x00, 0x22, 0x0b, 0x00, 0x00, 0xf5, 0xf7, 0xff, 0xff,
  0x9e, 0xf9, 0xff, 0xff, 0xe1, 0x0e, 0x00, 0x00, 0xf3, 0x08, 0x00, 0x00,
  0x12, 0xf8, 0xff, 0xff, 0x38, 0x09, 0x00, 0x00, 0x8f, 0xf9, 0xff, 0xff,
  0x87, 0xf7, 0xff, 0xff, 0x17, 0x08, 0x00, 0x00, 0xab, 0xf7, 0xff, 0xff,
  0xa8, 0xf5, 0xff, 0xff, 0x0f, 0xf7, 0xff, 0xff, 0xab, 0x09, 0x00, 0x00,
  0xc6, 0xf8, 0xff, 0xff, 0xea, 0xfe, 0xff, 0xff, 0x04, 0x00, 0x00, 0x00,
  0x40, 0x00, 0x00, 0x00, 0x0f, 0xf0, 0xda, 0x10, 0x3e, 0x7f, 0x41, 0xc9,
  0x00, 0xda, 0x40, 0xbe, 0x0e, 0xd9, 0x17, 0xb1, 0xe6, 0x1a, 0x41, 0x49,
  0x28, 0xf1, 0x21, 0xef, 0x5c, 0x4f, 0xee, 0x5e, 0x31, 0x24, 0xce, 0x50,
  0x39, 0x00, 0x35, 0x25, 0xd6, 0xfc, 0xec, 0xe1, 0xb3, 0x35, 0xdc, 0xec,
  0x39, 0x00, 0xf6, 0xf3, 0x26, 0x45, 0xb5, 0xdd, 0x39, 0x2a, 0xcc, 0x2f,
  0xbf, 0xec, 0x2a, 0xd1, 0xd2, 0xd6, 0x0b, 0xf1, 0x36, 0xff, 0xff, 0xff,
  0x04, 0x00, 0x00, 0x00, 0x08, 0x00, 0x00, 0x00, 0x86, 0xf8, 0xff, 0xff,
  0x7a, 0x07, 0x00, 0x00, 0xb0, 0xf9, 0xff, 0xff, 0xb4, 0xf9, 0xff, 0xff,
  0x0f, 0x00, 0x00, 0x00, 0x4d, 0x4c, 0x49, 0x52, 0x20, 0x43, 0x6f, 0x6e,
  0x76, 0x65, 0x72, 0x74, 0x65, 0x64, 0x2e, 0x00, 0x01, 0x00, 0x00, 0x00,
  0x14, 0x00, 0x00, 0x00, 0x00, 0x00, 0x0e, 0x00, 0x18, 0x00, 0x14, 0x00,
  0x10, 0x00, 0x0c, 0x00, 0x08, 0x00, 0x04, 0x00, 0x0e, 0x00, 0x00, 0x00,
  0x14, 0x00, 0x00, 0x00, 0x1c, 0x00, 0x00, 0x00, 0x40, 0x01, 0x00, 0x00,
  0x44, 0x01, 0x00, 0x00, 0x48, 0x01, 0x00, 0x00, 0x04, 0x00, 0x00, 0x00,
  0x6d, 0x61, 0x69, 0x6e, 0x00, 0x00, 0x00, 0x00, 0x05, 0x00, 0x00, 0x00,
  0x08, 0x01, 0x00, 0x00, 0xb8, 0x00, 0x00, 0x00, 0x70, 0x00, 0x00, 0x00,
  0x34, 0x00, 0x00, 0x00, 0x10, 0x00, 0x00, 0x00, 0x00, 0x00, 0x0a, 0x00,
  0x10, 0x00, 0x0c, 0x00, 0x08, 0x00, 0x04, 0x00, 0x0a, 0x00, 0x00, 0x00,
  0x0c, 0x00, 0x00, 0x00, 0x10, 0x00, 0x00, 0x00, 0x03, 0x00, 0x00, 0x00,
  0x01, 0x00, 0x00, 0x00, 0x09, 0x00, 0x00, 0x00, 0x01, 0x00, 0x00, 0x00,
  0x08, 0x00, 0x00, 0x00, 0x92, 0xff, 0xff, 0xff, 0x1c, 0x00, 0x00, 0x00,
  0x00, 0x00, 0x00, 0x09, 0x1c, 0x00, 0x00, 0x00, 0x20, 0x00, 0x00, 0x00,
  0x02, 0x00, 0x00, 0x00, 0x00, 0x00, 0x06, 0x00, 0x08, 0x00, 0x04, 0x00,
  0x06, 0x00, 0x00, 0x00, 0x00, 0x00, 0x80, 0x3f, 0x01, 0x00, 0x00, 0x00,
  0x08, 0x00, 0x00, 0x00, 0x01, 0x00, 0x00, 0x00, 0x07, 0x00, 0x00, 0x00,
  0xca, 0xff, 0xff, 0xff, 0x14, 0x00, 0x00, 0x00, 0x00, 0x00, 0x00, 0x08,
  0x10, 0x00, 0x00, 0x00, 0x14, 0x00, 0x00, 0x00, 0x01, 0x00, 0x00, 0x00,
  0x9c, 0xfa, 0xff, 0xff, 0x01, 0x00, 0x00, 0x00, 0x07, 0x00, 0x00, 0x00,
  0x03, 0x00, 0x00, 0x00, 0x06, 0x00, 0x00, 0x00, 0x02, 0x00, 0x00, 0x00,
  0x01, 0x00, 0x00, 0x00, 0x00, 0x00, 0x0e, 0x00, 0x1a, 0x00, 0x14, 0x00,
  0x10, 0x00, 0x0c, 0x00, 0x0b, 0x00, 0x04, 0x00, 0x0e, 0x00, 0x00, 0x00,
  0x1c, 0x00, 0x00, 0x00, 0x00, 0x00, 0x00, 0x08, 0x1c, 0x00, 0x00, 0x00,
  0x20, 0x00, 0x00, 0x00, 0x01, 0x00, 0x00, 0x00, 0x00, 0x00, 0x06, 0x00,
  0x08, 0x00, 0x07, 0x00, 0x06, 0x00, 0x00, 0x00, 0x00, 0x00, 0x00, 0x01,
  0x01, 0x00, 0x00, 0x00, 0x06, 0x00, 0x00, 0x00, 0x03, 0x00, 0x00, 0x00,
  0x05, 0x00, 0x00, 0x00, 0x04, 0x00, 0x00, 0x00, 0x03, 0x00, 0x00, 0x00,
  0x00, 0x00, 0x0a, 0x00, 0x0c, 0x00, 0x00, 0x00, 0x08, 0x00, 0x04, 0x00,
  0x0a, 0x00, 0x00, 0x00, 0x08, 0x00, 0x00, 0x00, 0x0c, 0x00, 0x00, 0x00,
  0x01, 0x00, 0x00, 0x00, 0x05, 0x00, 0x00, 0x00, 0x01, 0x00, 0x00, 0x00,
  0x00, 0x00, 0x00, 0x00, 0x01, 0x00, 0x00, 0x00, 0x09, 0x00, 0x00, 0x00,
  0x01, 0x00, 0x00, 0x00, 0x00, 0x00, 0x00, 0x00, 0x0a, 0x00, 0x00, 0x00,
  0x94, 0x04, 0x00, 0x00, 0x10, 0x04, 0x00, 0x00, 0x90, 0x03, 0x00, 0x00,
  0x2c, 0x03, 0x00, 0x00, 0xc8, 0x02, 0x00, 0x00, 0x54, 0x02, 0x00, 0x00,
  0x88, 0x01, 0x00, 0x00, 0xe4, 0x00, 0x00, 0x00, 0x60, 0x00, 0x00, 0x00,
  0x04, 0x00, 0x00, 0x00, 0xaa, 0xfb, 0xff, 0xff, 0x00, 0x00, 0x00, 0x01,
  0x14, 0x00, 0x00, 0x00, 0x1c, 0x00, 0x00, 0x00, 0x1c, 0x00, 0x00, 0x00,
  0x0a, 0x00, 0x00, 0x00, 0x34, 0x00, 0x00, 0x00, 0x02, 0x00, 0x00, 0x00,
  0xff, 0xff, 0xff, 0xff, 0x02, 0x00, 0x00, 0x00, 0x94, 0xfb, 0xff, 0xff,
  0x1b, 0x00, 0x00, 0x00, 0x53, 0x74, 0x61, 0x74, 0x65, 0x66, 0x75, 0x6c,
  0x50, 0x61, 0x72, 0x74, 0x69, 0x74, 0x69, 0x6f, 0x6e, 0x65, 0x64, 0x43,
  0x61, 0x6c, 0x6c, 0x5f, 0x31, 0x3a, 0x30, 0x00, 0x02, 0x00, 0x00, 0x00,
  0x01, 0x00, 0x00, 0x00, 0x02, 0x00, 0x00, 0x00, 0x2e, 0xfe, 0xff, 0xff,
  0x00, 0x00, 0x00, 0x01, 0x18, 0x00, 0x00, 0x00, 0x20, 0x00, 0x00, 0x00,
  0x40, 0x00, 0x00, 0x00, 0x09, 0x00, 0x00, 0x00, 0x00, 0x00, 0x00, 0x09,
  0x58, 0x00, 0x00, 0x00, 0x02, 0x00, 0x00, 0x00, 0xff, 0xff, 0xff, 0xff,
  0x02, 0x00, 0x00, 0x00, 0x7c, 0xfc, 0xff, 0xff, 0x08, 0x00, 0x00, 0x00,
  0x14, 0x00, 0x00, 0x00, 0x01, 0x00, 0x00, 0x00, 0x80, 0xff, 0xff, 0xff,
  0xff, 0xff, 0xff, 0xff, 0x00, 0x00, 0x00, 0x00, 0x01, 0x00, 0x00, 0x00,
  0x00, 0x00, 0x80, 0x3b, 0x1c, 0x00, 0x00, 0x00, 0x53, 0x74, 0x61, 0x74,
  0x65, 0x66, 0x75, 0x6c, 0x50, 0x61, 0x72, 0x74, 0x69, 0x74, 0x69, 0x6f,
  0x6e, 0x65, 0x64, 0x43, 0x61, 0x6c, 0x6c, 0x5f, 0x31, 0x3a, 0x30, 0x31,
  0x00, 0x00, 0x00, 0x00, 0x02, 0x00, 0x00, 0x00, 0x01, 0x00, 0x00, 0x00,
  0x02, 0x00, 0x00, 0x00, 0xae, 0xfe, 0xff, 0xff, 0x00, 0x00, 0x00, 0x01,
  0x18, 0x00, 0x00, 0x00, 0x20, 0x00, 0x00, 0x00, 0x40, 0x00, 0x00, 0x00,
  0x08, 0x00, 0x00, 0x00, 0x00, 0x00, 0x00, 0x09, 0x78, 0x00, 0x00, 0x00,
  0x02, 0x00, 0x00, 0x00, 0xff, 0xff, 0xff, 0xff, 0x02, 0x00, 0x00, 0x00,
  0xfc, 0xfc, 0xff, 0xff, 0x08, 0x00, 0x00, 0x00, 0x14, 0x00, 0x00, 0x00,
  0x01, 0x00, 0x00, 0x00, 0xdf, 0xff, 0xff, 0xff, 0xff, 0xff, 0xff, 0xff,
  0x00, 0x00, 0x00, 0x00, 0x01, 0x00, 0x00, 0x00, 0xff, 0x02, 0x96, 0x3d,
  0x3c, 0x00, 0x00, 0x00, 0x73, 0x65, 0x71, 0x75, 0x65, 0x6e, 0x74, 0x69,
  0x61, 0x6c, 0x5f, 0x31, 0x2f, 0x64, 0x65, 0x6e, 0x73, 0x65, 0x5f, 0x31,
  0x5f, 0x32, 0x2f, 0x4d, 0x61, 0x74, 0x4d, 0x75, 0x6c, 0x3b, 0x73, 0x65,
  0x71, 0x75, 0x65, 0x6e, 0x74, 0x69, 0x61, 0x6c, 0x5f, 0x31, 0x2f, 0x64,
  0x65, 0x6e, 0x73, 0x65, 0x5f, 0x31, 0x5f, 0x32, 0x2f, 0x42, 0x69, 0x61,
  0x73, 0x41, 0x64, 0x64, 0x00, 0x00, 0x00, 0x00, 0x02, 0x00, 0x00, 0x00,
  0x01, 0x00, 0x00, 0x00, 0x02, 0x00, 0x00, 0x00, 0x4e, 0xff, 0xff, 0xff,
  0x00, 0x00, 0x00, 0x01, 0x18, 0x00, 0x00, 0x00, 0x20, 0x00, 0x00, 0x00,
  0x3c, 0x00, 0x00, 0x00, 0x07, 0x00, 0x00, 0x00, 0x00, 0x00, 0x00, 0x09,
  0x88, 0x00, 0x00, 0x00, 0x02, 0x00, 0x00, 0x00, 0xff, 0xff, 0xff, 0xff,
  0x20, 0x00, 0x00, 0x00, 0x9c, 0xfd, 0xff, 0xff, 0x08, 0x00, 0x00, 0x00,
  0x10, 0x00, 0x00, 0x00, 0x01, 0x00, 0x00, 0x00, 0x80, 0xff, 0xff, 0xff,
  0xff, 0xff, 0xff, 0xff, 0x01, 0x00, 0x00, 0x00, 0xfe, 0x44, 0xed, 0x3c,
  0x52, 0x00, 0x00, 0x00, 0x73, 0x65, 0x71, 0x75, 0x65, 0x6e, 0x74, 0x69,
  0x61, 0x6c, 0x5f, 0x31, 0x2f, 0x64, 0x65, 0x6e, 0x73, 0x65, 0x5f, 0x31,
  0x2f, 0x4d, 0x61, 0x74, 0x4d, 0x75, 0x6c, 0x3b, 0x73, 0x65, 0x71, 0x75,
  0x65, 0x6e, 0x74, 0x69, 0x61, 0x6c, 0x5f, 0x31, 0x2f, 0x64, 0x65, 0x6e,
  0x73, 0x65, 0x5f, 0x31, 0x2f, 0x52, 0x65, 0x6c, 0x75, 0x3b, 0x73, 0x65,
  0x71, 0x75, 0x65, 0x6e, 0x74, 0x69, 0x61, 0x6c, 0x5f, 0x31, 0x2f, 0x64,
  0x65, 0x6e, 0x73, 0x65, 0x5f, 0x31, 0x2f, 0x42, 0x69, 0x61, 0x73, 0x41,
  0x64, 0x64, 0x00, 0x00, 0x02, 0x00, 0x00, 0x00, 0x01, 0x00, 0x00, 0x00,
  0x20, 0x00, 0x00, 0x00, 0x00, 0x00, 0x16, 0x00, 0x20, 0x00, 0x1c, 0x00,
  0x1b, 0x00, 0x14, 0x00, 0x10, 0x00, 0x0c, 0x00, 0x00, 0x00, 0x00, 0x00,
  0x08, 0x00, 0x07, 0x00, 0x16, 0x00, 0x00, 0x00, 0x00, 0x00, 0x00, 0x01,
  0x18, 0x00, 0x00, 0x00, 0x20, 0x00, 0x00, 0x00, 0x40, 0x00, 0x00, 0x00,
  0x06, 0x00, 0x00, 0x00, 0x00, 0x00, 0x00, 0x09, 0x48, 0x00, 0x00, 0x00,
  0x02, 0x00, 0x00, 0x00, 0xff, 0xff, 0xff, 0xff, 0x23, 0x00, 0x00, 0x00,
  0x64, 0xfe, 0xff, 0xff, 0x08, 0x00, 0x00, 0x00, 0x14, 0x00, 0x00, 0x00,
  0x01, 0x00, 0x00, 0x00, 0x02, 0x00, 0x00, 0x00, 0x00, 0x00, 0x00, 0x00,
  0x00, 0x00, 0x00, 0x00, 0x01, 0x00, 0x00, 0x00, 0x4c, 0xd6, 0xcf, 0x3c,
  0x0c, 0x00, 0x00, 0x00, 0x74, 0x66, 0x6c, 0x2e, 0x71, 0x75, 0x61, 0x6e,
  0x74, 0x69, 0x7a, 0x65, 0x00, 0x00, 0x00, 0x00, 0x02, 0x00, 0x00, 0x00,
  0x01, 0x00, 0x00, 0x00, 0x23, 0x00, 0x00, 0x00, 0xda, 0xfe, 0xff, 0xff,
  0x00, 0x00, 0x00, 0x01, 0x14, 0x00, 0x00, 0x00, 0x30, 0x00, 0x00, 0x00,
  0x05, 0x00, 0x00, 0x00, 0x00, 0x00, 0x00, 0x09, 0x3c, 0x00, 0x00, 0x00,
  0xc4, 0xfe, 0xff, 0xff, 0x08, 0x00, 0x00, 0x00, 0x10, 0x00, 0x00, 0x00,
  0x01, 0x00, 0x00, 0x00, 0x00, 0x00, 0x00, 0x00, 0x00, 0x00, 0x00, 0x00,
  0x01, 0x00, 0x00, 0x00, 0xe5, 0x39, 0xd4, 0x3b, 0x12, 0x00, 0x00, 0x00,
  0x74, 0x66, 0x6c, 0x2e, 0x70, 0x73, 0x65, 0x75, 0x64, 0x6f, 0x5f, 0x71,
  0x63, 0x6f, 0x6e, 0x73, 0x74, 0x33, 0x00, 0x00, 0x02, 0x00, 0x00, 0x00,
  0x20, 0x00, 0x00, 0x00, 0x23, 0x00, 0x00, 0x00, 0x3a, 0xff, 0xff, 0xff,
  0x00, 0x00, 0x00, 0x01, 0x14, 0x00, 0x00, 0x00, 0x34, 0x00, 0x00, 0x00,
  0x04, 0x00, 0x00, 0x00, 0x00, 0x00, 0x00, 0x02, 0x40, 0x00, 0x00, 0x00,
  0x24, 0xff, 0xff, 0xff, 0x08, 0x00, 0x00, 0x00, 0x14, 0x00, 0x00, 0x00,
  0x01, 0x00, 0x00, 0x00, 0x00, 0x00, 0x00, 0x00, 0x00, 0x00, 0x00, 0x00,
  0x00, 0x00, 0x00, 0x00, 0x01, 0x00, 0x00, 0x00, 0x78, 0x4c, 0x2c, 0x39,
  0x12, 0x00, 0x00, 0x00, 0x74, 0x66, 0x6c, 0x2e, 0x70, 0x73, 0x65, 0x75,
  0x64, 0x6f, 0x5f, 0x71, 0x63, 0x6f, 0x6e, 0x73, 0x74, 0x32, 0x00, 0x00,
  0x01, 0x00, 0x00, 0x00, 0x20, 0x00, 0x00, 0x00, 0x9a, 0xff, 0xff, 0xff,
  0x00, 0x00, 0x00, 0x01, 0x14, 0x00, 0x00, 0x00, 0x34, 0x00, 0x00, 0x00,
  0x03, 0x00, 0x00, 0x00, 0x00, 0x00, 0x00, 0x09, 0x40, 0x00, 0x00, 0x00,
  0x84, 0xff, 0xff, 0xff, 0x08, 0x00, 0x00, 0x00, 0x14, 0x00, 0x00, 0x00,
  0x01, 0x00, 0x00, 0x00, 0x00, 0x00, 0x00, 0x00, 0x00, 0x00, 0x00, 0x00,
  0x00, 0x00, 0x00, 0x00, 0x01, 0x00, 0x00, 0x00, 0xd7, 0x69, 0xda, 0x3b,
  0x12, 0x00, 0x00, 0x00, 0x74, 0x66, 0x6c, 0x2e, 0x70, 0x73, 0x65, 0x75,
  0x64, 0x6f, 0x5f, 0x71, 0x63, 0x6f, 0x6e, 0x73, 0x74, 0x31, 0x00, 0x00,
  0x02, 0x00, 0x00, 0x00, 0x02, 0x00, 0x00, 0x00, 0x20, 0x00, 0x00, 0x00,
  0x00, 0x00, 0x16, 0x00, 0x1c, 0x00, 0x18, 0x00, 0x17, 0x00, 0x10, 0x00,
  0x0c, 0x00, 0x08, 0x00, 0x00, 0x00, 0x00, 0x00, 0x00, 0x00, 0x07, 0x00,
  0x16, 0x00, 0x00, 0x00, 0x00, 0x00, 0x00, 0x01, 0x20, 0x00, 0x00, 0x00,
  0x3c, 0x00, 0x00, 0x00, 0x02, 0x00, 0x00, 0x00, 0x00, 0x00, 0x00, 0x02,
  0x48, 0x00, 0x00, 0x00, 0x0c, 0x00, 0x0c, 0x00, 0x00, 0x00, 0x00, 0x00,
  0x08, 0x00, 0x04, 0x00, 0x0c, 0x00, 0x00, 0x00, 0x08, 0x00, 0x00, 0x00,
  0x10, 0x00, 0x00, 0x00, 0x01, 0x00, 0x00, 0x00, 0x00, 0x00, 0x00, 0x00,
  0x00, 0x00, 0x00, 0x00, 0x01, 0x00, 0x00, 0x00, 0xd9, 0x6e, 0x4a, 0x39,
  0x11, 0x00, 0x00, 0x00, 0x74, 0x66, 0x6c, 0x2e, 0x70, 0x73, 0x65, 0x75,
  0x64, 0x6f, 0x5f, 0x71, 0x63, 0x6f, 0x6e, 0x73, 0x74, 0x00, 0x00, 0x00,
  0x01, 0x00, 0x00, 0x00, 0x02, 0x00, 0x00, 0x00, 0x00, 0x00, 0x16, 0x00,
  0x1c, 0x00, 0x18, 0x00, 0x00, 0x00, 0x14, 0x00, 0x10, 0x00, 0x0c, 0x00,
  0x00, 0x00, 0x00, 0x00, 0x08, 0x00, 0x07, 0x00, 0x16, 0x00, 0x00, 0x00,
  0x00, 0x00, 0x00, 0x01, 0x14, 0x00, 0x00, 0x00, 0x20, 0x00, 0x00, 0x00,
  0x20, 0x00, 0x00, 0x00, 0x01, 0x00, 0x00, 0x00, 0x3c, 0x00, 0x00, 0x00,
  0x02, 0x00, 0x00, 0x00, 0xff, 0xff, 0xff, 0xff, 0x23, 0x00, 0x00, 0x00,
  0x04, 0x00, 0x04, 0x00, 0x04, 0x00, 0x00, 0x00, 0x1d, 0x00, 0x00, 0x00,
  0x73, 0x65, 0x72, 0x76, 0x69, 0x6e, 0x67, 0x5f, 0x64, 0x65, 0x66, 0x61,
  0x75, 0x6c, 0x74, 0x5f, 0x69, 0x6e, 0x70, 0x75, 0x74, 0x5f, 0x6c, 0x61,
  0x79, 0x65, 0x72, 0x3a, 0x30, 0x00, 0x00, 0x00, 0x02, 0x00, 0x00, 0x00,
  0x01, 0x00, 0x00, 0x00, 0x23, 0x00, 0x00, 0x00, 0x04, 0x00, 0x00, 0x00,
  0x58, 0x00, 0x00, 0x00, 0x38, 0x00, 0x00, 0x00, 0x18, 0x00, 0x00, 0x00,
  0x04, 0x00, 0x00, 0x00, 0xe0, 0xff, 0xff, 0xff, 0x06, 0x00, 0x00, 0x00,
  0x02, 0x00, 0x00, 0x00, 0x00, 0x00, 0x00, 0x06, 0xf0, 0xff, 0xff, 0xff,
  0x19, 0x00, 0x00, 0x00, 0x02, 0x00, 0x00, 0x00, 0x00, 0x00, 0x00, 0x19,
  0x0c, 0x00, 0x10, 0x00, 0x0f, 0x00, 0x00, 0x00, 0x08, 0x00, 0x04, 0x00,
  0x0c, 0x00, 0x00, 0x00, 0x09, 0x00, 0x00, 0x00, 0x04, 0x00, 0x00, 0x00,
  0x00, 0x00, 0x00, 0x09, 0x0c, 0x00, 0x0c, 0x00, 0x0b, 0x00, 0x00, 0x00,
  0x00, 0x00, 0x04, 0x00, 0x0c, 0x00, 0x00, 0x00, 0x72, 0x00, 0x00, 0x00,
  0x00, 0x00, 0x00, 0x72
};

const unsigned int idle_swing_model_data_len = 3688;

#endif // IDLE_SWING_MODEL_DATA_H
