#ifndef STROKE_TYPE_MODEL_DATA_H
#define STROKE_TYPE_MODEL_DATA_H

// AUTO-GENERATED TFLITE MODEL DATA

const unsigned char stroke_type_model_data[] = {
  0x20, 0x00, 0x00, 0x00, 0x54, 0x46, 0x4c, 0x33, 0x00, 0x00, 0x00, 0x00,
  0x14, 0x00, 0x20, 0x00, 0x1c, 0x00, 0x18, 0x00, 0x14, 0x00, 0x10, 0x00,
  0x0c, 0x00, 0x00, 0x00, 0x08, 0x00, 0x04, 0x00, 0x14, 0x00, 0x00, 0x00,
  0x1c, 0x00, 0x00, 0x00, 0x8c, 0x00, 0x00, 0x00, 0x0c, 0x01, 0x00, 0x00,
  0x78, 0x07, 0x00, 0x00, 0x88, 0x07, 0x00, 0x00, 0x00, 0x0e, 0x00, 0x00,
  0x03, 0x00, 0x00, 0x00, 0x01, 0x00, 0x00, 0x00, 0x04, 0x00, 0x00, 0x00,
  0x36, 0xf8, 0xff, 0xff, 0x0c, 0x00, 0x00, 0x00, 0x1c, 0x00, 0x00, 0x00,
  0x3c, 0x00, 0x00, 0x00, 0x0f, 0x00, 0x00, 0x00, 0x73, 0x65, 0x72, 0x76,
  0x69, 0x6e, 0x67, 0x5f, 0x64, 0x65, 0x66, 0x61, 0x75, 0x6c, 0x74, 0x00,
  0x01, 0x00, 0x00, 0x00, 0x04, 0x00, 0x00, 0x00, 0x68, 0xff, 0xff, 0xff,
  0x09, 0x00, 0x00, 0x00, 0x04, 0x00, 0x00, 0x00, 0x08, 0x00, 0x00, 0x00,
  0x6f, 0x75, 0x74, 0x70, 0x75, 0x74, 0x5f, 0x30, 0x00, 0x00, 0x00, 0x00,
  0x01, 0x00, 0x00, 0x00, 0x04, 0x00, 0x00, 0x00, 0x42, 0xf8, 0xff, 0xff,
  0x04, 0x00, 0x00, 0x00, 0x0d, 0x00, 0x00, 0x00, 0x69, 0x6e, 0x70, 0x75,
  0x74, 0x5f, 0x6c, 0x61, 0x79, 0x65, 0x72, 0x5f, 0x31, 0x00, 0x00, 0x00,
  0x03, 0x00, 0x00, 0x00, 0x5c, 0x00, 0x00, 0x00, 0x2c, 0x00, 0x00, 0x00,
  0x04, 0x00, 0x00, 0x00, 0xb8, 0xff, 0xff, 0xff, 0x0d, 0x00, 0x00, 0x00,
  0x04, 0x00, 0x00, 0x00, 0x13, 0x00, 0x00, 0x00, 0x43, 0x4f, 0x4e, 0x56,
  0x45, 0x52, 0x53, 0x49, 0x4f, 0x4e, 0x5f, 0x4d, 0x45, 0x54, 0x41, 0x44,
  0x41, 0x54, 0x41, 0x00, 0xdc, 0xff, 0xff, 0xff, 0x0c, 0x00, 0x00, 0x00,
  0x04, 0x00, 0x00, 0x00, 0x13, 0x00, 0x00, 0x00, 0x6d, 0x69, 0x6e, 0x5f,
  0x72, 0x75, 0x6e, 0x74, 0x69, 0x6d, 0x65, 0x5f, 0x76, 0x65, 0x72, 0x73,
  0x69, 0x6f, 0x6e, 0x00, 0x08, 0x00, 0x0c, 0x00, 0x08, 0x00, 0x04, 0x00,
  0x08, 0x00, 0x00, 0x00, 0x0b, 0x00, 0x00, 0x00, 0x04, 0x00, 0x00, 0x00,
  0x13, 0x00, 0x00, 0x00, 0x6d, 0x69, 0x6e, 0x5f, 0x72, 0x75, 0x6e, 0x74,
  0x69, 0x6d, 0x65, 0x5f, 0x76, 0x65, 0x72, 0x73, 0x69, 0x6f, 0x6e, 0x00,
  0x0e, 0x00, 0x00, 0x00, 0x68, 0x06, 0x00, 0x00, 0x60, 0x06, 0x00, 0x00,
  0x44, 0x06, 0x00, 0x00, 0xd4, 0x05, 0x00, 0x00, 0x44, 0x05, 0x00, 0x00,
  0xd4, 0x00, 0x00, 0x00, 0xcc, 0x00, 0x00, 0x00, 0xc4, 0x00, 0x00, 0x00,
  0xbc, 0x00, 0x00, 0x00, 0xb4, 0x00, 0x00, 0x00, 0xac, 0x00, 0x00, 0x00,
  0x8c, 0x00, 0x00, 0x00, 0x6c, 0x00, 0x00, 0x00, 0x04, 0x00, 0x00, 0x00,
  0x1e, 0xf9, 0xff, 0xff, 0x04, 0x00, 0x00, 0x00, 0x58, 0x00, 0x00, 0x00,
  0x0c, 0x00, 0x00, 0x00, 0x08, 0x00, 0x0e, 0x00, 0x08, 0x00, 0x04, 0x00,
  0x08, 0x00, 0x00, 0x00, 0x10, 0x00, 0x00, 0x00, 0x28, 0x00, 0x00, 0x00,
  0x00, 0x00, 0x06, 0x00, 0x08, 0x00, 0x04, 0x00, 0x06, 0x00, 0x00, 0x00,
  0x04, 0x00, 0x00, 0x00, 0x01, 0x00, 0x00, 0x00, 0xeb, 0x03, 0x00, 0x00,
  0x00, 0x00, 0x0a, 0x00, 0x10, 0x00, 0x0c, 0x00, 0x08, 0x00, 0x04, 0x00,
  0x0a, 0x00, 0x00, 0x00, 0x01, 0x00, 0x00, 0x00, 0x02, 0x00, 0x00, 0x00,
  0x04, 0x00, 0x00, 0x00, 0x06, 0x00, 0x00, 0x00, 0x32, 0x2e, 0x31, 0x36,
  0x2e, 0x32, 0x00, 0x00, 0x82, 0xf9, 0xff, 0xff, 0x04, 0x00, 0x00, 0x00,
  0x10, 0x00, 0x00, 0x00, 0x00, 0x00, 0x00, 0x00, 0x00, 0x00, 0x00, 0x00,
  0x00, 0x00, 0x00, 0x00, 0x00, 0x00, 0x00, 0x00, 0x9e, 0xf9, 0xff, 0xff,
  0x04, 0x00, 0x00, 0x00, 0x10, 0x00, 0x00, 0x00, 0x31, 0x2e, 0x31, 0x34,
  0x2e, 0x30, 0x00, 0x00, 0x00, 0x00, 0x00, 0x00, 0x00, 0x00, 0x00, 0x00,
  0x10, 0xf4, 0xff, 0xff, 0x14, 0xf4, 0xff, 0xff, 0x18, 0xf4, 0xff, 0xff,
  0x1c, 0xf4, 0xff, 0xff, 0x20, 0xf4, 0xff, 0xff, 0xce, 0xf9, 0xff, 0xff,
  0x04, 0x00, 0x00, 0x00, 0x60, 0x04, 0x00, 0x00, 0xc5, 0xf0, 0xd4, 0x06,
  0xfb, 0x18, 0xef, 0x1a, 0x1d, 0x23, 0xf4, 0xf1, 0xd2, 0xf9, 0x18, 0xe9,
  0x23, 0x09, 0x1a, 0x1e, 0x34, 0x35, 0x6e, 0x0d, 0xde, 0xd1, 0x16, 0xf3,
  0xfd, 0xfc, 0xfc, 0x3b, 0x1e, 0xc6, 0x0c, 0x1b, 0xe7, 0xfa, 0x17, 0x25,
  0xf8, 0x23, 0x0a, 0xd3, 0x5e, 0xe1, 0x36, 0xe2, 0x00, 0xfe, 0xc8, 0xe1,
  0xd3, 0x35, 0xc7, 0x33, 0x9c, 0xc9, 0x10, 0x16, 0xf6, 0xad, 0xf1, 0xe0,
  0x63, 0x07, 0x14, 0xda, 0xf1, 0x06, 0xfb, 0xe9, 0xf2, 0x6b, 0x0f, 0x4d,
  0x13, 0x16, 0x11, 0x11, 0xd3, 0xee, 0xe5, 0x22, 0x2f, 0xd9, 0xbc, 0xe6,
  0x0b, 0x0e, 0xdd, 0x5d, 0x6e, 0x1b, 0xee, 0x1f, 0xbd, 0x26, 0x5f, 0x0a,
  0x32, 0x20, 0x18, 0xde, 0xdc, 0xb9, 0xb7, 0x3d, 0x16, 0xe1, 0xff, 0xd9,
  0x0f, 0x03, 0x1a, 0xb5, 0xb8, 0xff, 0x04, 0x1c, 0x37, 0xd6, 0x3b, 0xa1,
  0x19, 0x0c, 0x11, 0x2d, 0xf4, 0x3f, 0x2e, 0x1a, 0x12, 0x19, 0x2e, 0xca,
  0xbf, 0xe6, 0x10, 0x17, 0x07, 0xfc, 0xf9, 0xaa, 0x10, 0xed, 0x16, 0xfe,
  0x2f, 0xed, 0x1e, 0x2e, 0xf9, 0x9d, 0xd0, 0x2b, 0xe7, 0xef, 0xb8, 0x02,
  0x20, 0xea, 0xad, 0xff, 0x5b, 0x40, 0x16, 0x2a, 0x45, 0xe3, 0x1d, 0xff,
  0xf9, 0x22, 0xd5, 0xd4, 0x26, 0xef, 0xea, 0x10, 0x03, 0x35, 0x0a, 0x2e,
  0x02, 0x37, 0xeb, 0x03, 0xcd, 0x37, 0x09, 0xff, 0x24, 0x0c, 0x4e, 0x26,
  0x00, 0x0a, 0xf5, 0x4c, 0xfe, 0x37, 0xe6, 0x0e, 0xe2, 0x1b, 0x0a, 0xd3,
  0xdc, 0xe8, 0xfe, 0xd0, 0x34, 0x1d, 0xe4, 0xfe, 0x17, 0xec, 0xd9, 0xc6,
  0xe0, 0xbe, 0xcf, 0x0f, 0xd0, 0x3e, 0xfc, 0x26, 0x3e, 0x06, 0x23, 0xc1,
  0xe1, 0x12, 0x05, 0x29, 0x26, 0xe5, 0xac, 0x18, 0x23, 0xfb, 0xcc, 0x12,
  0x1d, 0xf2, 0x19, 0xd7, 0xfb, 0xfb, 0x25, 0x0b, 0xe4, 0xea, 0xca, 0x34,
  0x30, 0xe5, 0xbc, 0xd1, 0xfd, 0xfb, 0xcd, 0x04, 0x0c, 0xf8, 0xaf, 0xe3,
  0x0a, 0xe2, 0x3b, 0xf3, 0xec, 0x19, 0xeb, 0xff, 0x24, 0xf8, 0x09, 0x1d,
  0x98, 0xf4, 0x25, 0x09, 0x98, 0xda, 0x11, 0x33, 0x4a, 0x01, 0x1a, 0x9f,
  0x18, 0x2d, 0xf1, 0x47, 0x2f, 0x17, 0xda, 0x12, 0x30, 0x9e, 0x4b, 0xf1,
  0xdd, 0xb0, 0x14, 0xcc, 0xc1, 0x05, 0xd1, 0xe2, 0x26, 0xf9, 0x08, 0xf9,
  0x03, 0x00, 0xd7, 0xf1, 0x22, 0x3c, 0x32, 0x1b, 0x4b, 0x12, 0x0c, 0x16,
  0x30, 0xd8, 0x08, 0x36, 0x39, 0xd8, 0xe9, 0x0f, 0xe2, 0x13, 0x25, 0x01,
  0xbf, 0x2e, 0x0e, 0xc0, 0xec, 0xfd, 0xe6, 0x0c, 0x12, 0x25, 0xe7, 0x03,
  0xcc, 0x18, 0x97, 0x0e, 0xfd, 0x0c, 0xda, 0xdb, 0x02, 0xda, 0xda, 0xc9,
  0x39, 0x23, 0x0c, 0x39, 0x0a, 0xf9, 0x05, 0xb9, 0xc3, 0xec, 0xd4, 0xf1,
  0xe6, 0x22, 0xc0, 0x01, 0xf7, 0xe8, 0x11, 0x27, 0x2c, 0xe1, 0x1c, 0x00,
  0xc9, 0xef, 0xe9, 0xfc, 0x07, 0x32, 0xc6, 0x07, 0xe8, 0x0c, 0x0d, 0x26,
  0x23, 0x3e, 0xd0, 0x06, 0xf7, 0x5b, 0xab, 0xc8, 0xdf, 0x25, 0x32, 0x28,
  0x0a, 0x09, 0xe5, 0xdc, 0x1f, 0xdb, 0xc7, 0xbd, 0x42, 0x22, 0x02, 0x01,
  0x2b, 0xd2, 0xdb, 0x34, 0x27, 0x0b, 0x97, 0xf7, 0x53, 0xdf, 0x21, 0xbb,
  0xe0, 0x1a, 0xfc, 0x35, 0x14, 0x46, 0x3b, 0x1b, 0xd7, 0x27, 0x40, 0x13,
  0xd9, 0xf7, 0x0e, 0x43, 0x51, 0xeb, 0x1f, 0xc4, 0xf2, 0xe7, 0xa7, 0xe1,
  0xfc, 0x2b, 0xf1, 0x17, 0x0d, 0x05, 0xdc, 0x0f, 0x2a, 0xfb, 0xc9, 0x06,
  0x0a, 0x7d, 0xdf, 0x22, 0x98, 0xbb, 0x05, 0x0c, 0xc3, 0xf3, 0x34, 0x81,
  0xb5, 0xdf, 0xc1, 0x3a, 0x3d, 0xfb, 0x14, 0xf6, 0xd3, 0x2a, 0xee, 0x57,
  0x38, 0xee, 0x0b, 0x07, 0x3c, 0x2e, 0x51, 0x44, 0x3b, 0xdb, 0x24, 0x32,
  0xd3, 0x24, 0xbd, 0xe1, 0xe6, 0xe1, 0xe1, 0xbf, 0xdb, 0x1f, 0x2c, 0x41,
  0x1a, 0x38, 0x27, 0x2b, 0x46, 0xf5, 0xfa, 0xb5, 0xf1, 0x11, 0x19, 0xe5,
  0xd3, 0x05, 0xcd, 0x13, 0xa7, 0x46, 0x1e, 0x26, 0x28, 0xd5, 0xf4, 0x6d,
  0xf2, 0x95, 0x30, 0xfb, 0xec, 0xda, 0x4a, 0x27, 0x00, 0x2a, 0xda, 0x02,
  0x0e, 0xcc, 0x1e, 0xf3, 0x30, 0x0f, 0x23, 0xbb, 0x0a, 0xf5, 0xcf, 0x13,
  0xc4, 0xea, 0x11, 0x11, 0xba, 0x13, 0xea, 0x02, 0xb8, 0xcd, 0x0f, 0x00,
  0xab, 0x4f, 0x22, 0x3c, 0xec, 0x20, 0xf5, 0xd0, 0x0b, 0x2d, 0xac, 0x0f,
  0xad, 0xe4, 0xe4, 0xfb, 0x30, 0xfb, 0xc2, 0xfc, 0x16, 0x37, 0xe0, 0x3f,
  0xfa, 0x11, 0x24, 0x02, 0x10, 0xec, 0x16, 0x0f, 0xca, 0xf1, 0x14, 0xe8,
  0x11, 0x11, 0xf7, 0xfb, 0x39, 0x26, 0xf5, 0xdd, 0x06, 0x2d, 0x00, 0xda,
  0x0d, 0xf7, 0x43, 0xe9, 0x14, 0xe3, 0x29, 0x34, 0xd2, 0xcf, 0xf6, 0xde,
  0x01, 0x39, 0xc9, 0x20, 0xe2, 0x54, 0x0a, 0x0d, 0x1c, 0xef, 0x0f, 0x58,
  0xff, 0xf3, 0xef, 0xe4, 0x11, 0xf1, 0xfc, 0x31, 0xa8, 0xcc, 0x02, 0x43,
  0xd6, 0x16, 0x03, 0x0f, 0x17, 0x1e, 0x55, 0xe8, 0x2c, 0x26, 0x17, 0xf5,
  0xf7, 0x36, 0xd2, 0xfa, 0x2f, 0xf8, 0x11, 0xdf, 0xd8, 0xd0, 0xc0, 0x07,
  0x07, 0xae, 0xbd, 0x3c, 0x1a, 0xce, 0x25, 0xfb, 0x0a, 0x0f, 0x04, 0x06,
  0x2d, 0xd1, 0x0e, 0xd7, 0xc4, 0x13, 0xe8, 0xf5, 0x50, 0xda, 0x02, 0x1b,
  0xda, 0x20, 0xe2, 0xdb, 0x01, 0xea, 0xc4, 0xe2, 0x45, 0xb3, 0x0f, 0x02,
  0xf8, 0x21, 0xfd, 0xc2, 0xee, 0xae, 0xfd, 0x00, 0x4c, 0x23, 0xd2, 0x1a,
  0x19, 0xfa, 0xce, 0x3a, 0x26, 0xd1, 0x03, 0x3b, 0xf3, 0x16, 0x17, 0xed,
  0x0b, 0xe5, 0x2f, 0xec, 0xc1, 0xd4, 0x5b, 0x53, 0xb9, 0xf8, 0xe9, 0x11,
  0x10, 0xc5, 0xff, 0x24, 0xdd, 0x43, 0xf5, 0xe2, 0xfd, 0x06, 0xfa, 0xbd,
  0x15, 0x2d, 0xea, 0xd7, 0xce, 0xfa, 0x0b, 0xd6, 0xdc, 0xc9, 0xe8, 0x1c,
  0x15, 0x19, 0xc5, 0x31, 0x0a, 0xed, 0x0c, 0xd8, 0xbf, 0xc0, 0x38, 0xe8,
  0x05, 0x1b, 0xdd, 0xe2, 0x0c, 0x0d, 0x50, 0x2c, 0x12, 0x2a, 0x47, 0x18,
  0x47, 0x17, 0x1c, 0x04, 0xf0, 0x12, 0x1d, 0x01, 0xe3, 0x23, 0x43, 0xe8,
  0x21, 0x02, 0x2e, 0xe7, 0xcc, 0x0f, 0x0b, 0xe3, 0x0a, 0x34, 0xcc, 0x12,
  0x3d, 0x37, 0x1c, 0xec, 0xf7, 0xc9, 0x12, 0x1e, 0x36, 0x35, 0xdf, 0x1e,
  0x13, 0x03, 0xf8, 0xce, 0xfc, 0x35, 0x16, 0x17, 0x37, 0x32, 0xfd, 0x14,
  0x0e, 0x31, 0xe5, 0xd6, 0x1d, 0xee, 0x11, 0x12, 0x25, 0xc0, 0xed, 0x22,
  0x35, 0x43, 0x28, 0x2f, 0x01, 0x25, 0xdb, 0xf8, 0xe4, 0x06, 0x47, 0xc2,
  0xd1, 0xad, 0x32, 0x3f, 0xe1, 0xf8, 0xdf, 0x03, 0xc6, 0xe8, 0x3b, 0xfd,
  0x01, 0xf0, 0x12, 0x1d, 0xea, 0xe0, 0xe0, 0x4d, 0x31, 0xd0, 0xf6, 0x50,
  0x1d, 0xb5, 0xd5, 0x34, 0xbe, 0xfc, 0x09, 0x24, 0x09, 0x1c, 0x13, 0x12,
  0x13, 0x3c, 0x32, 0xe2, 0x30, 0xf7, 0x30, 0xc9, 0xf0, 0xf0, 0x15, 0x1c,
  0x34, 0x27, 0xe0, 0xcb, 0xc9, 0x48, 0xdb, 0x25, 0x19, 0xfb, 0xfc, 0xf7,
  0x30, 0xb4, 0x3c, 0x33, 0xe2, 0xc3, 0x17, 0xf9, 0xf6, 0xf1, 0x27, 0x4f,
  0xee, 0xf1, 0xf2, 0x12, 0xe2, 0x1c, 0x02, 0xdf, 0xd6, 0x27, 0xda, 0xb9,
  0x28, 0x25, 0x19, 0xe3, 0xfd, 0x39, 0x1d, 0xcd, 0xf0, 0x49, 0xe3, 0x28,
  0x57, 0xda, 0x06, 0xa5, 0xf4, 0xba, 0x3e, 0x15, 0x1d, 0x16, 0xe3, 0x06,
  0x0f, 0x30, 0x04, 0xd6, 0xf1, 0x09, 0x0e, 0x57, 0x0c, 0xde, 0xd9, 0x11,
  0x48, 0xc6, 0xfc, 0xce, 0x50, 0x02, 0xd1, 0xf5, 0x3b, 0xd3, 0xd4, 0xea,
  0x07, 0x06, 0xd0, 0xbb, 0x90, 0x24, 0x66, 0x15, 0xdb, 0x0c, 0x2e, 0x23,
  0x06, 0xc6, 0xea, 0xe2, 0x2f, 0xd7, 0x37, 0x27, 0x43, 0xff, 0xf0, 0x07,
  0xf4, 0x46, 0xe5, 0x3b, 0xd9, 0x12, 0xfb, 0x20, 0xfd, 0xcc, 0x40, 0x01,
  0xbe, 0x2c, 0x3b, 0x3c, 0x27, 0x4b, 0x14, 0x26, 0xce, 0x01, 0x12, 0x47,
  0x28, 0x10, 0x4e, 0x00, 0x10, 0x13, 0xf7, 0x09, 0x2c, 0xe3, 0xc0, 0xc0,
  0x27, 0x1b, 0x1a, 0xf0, 0x20, 0xf8, 0x0f, 0x23, 0xd8, 0xee, 0x03, 0x06,
  0xdb, 0x44, 0x22, 0xde, 0xc4, 0x47, 0x38, 0x22, 0x00, 0xe8, 0x13, 0x2f,
  0xca, 0x0b, 0x56, 0x16, 0x04, 0xfa, 0xcb, 0xfc, 0xef, 0xe2, 0x77, 0xfc,
  0x4e, 0x3c, 0xea, 0xc1, 0x03, 0x00, 0xfd, 0xc4, 0x17, 0xd2, 0x1f, 0xdb,
  0x3a, 0xfe, 0xff, 0xff, 0x04, 0x00, 0x00, 0x00, 0x80, 0x00, 0x00, 0x00,
  0xf2, 0xfd, 0xff, 0xff, 0x35, 0x01, 0x00, 0x00, 0x42, 0x06, 0x00, 0x00,
  0xd7, 0x02, 0x00, 0x00, 0x43, 0x04, 0x00, 0x00, 0xcc, 0xff, 0xff, 0xff,
  0x46, 0x02, 0x00, 0x00, 0x76, 0x01, 0x00, 0x00, 0x7f, 0x04, 0x00, 0x00,
  0x3e, 0x01, 0x00, 0x00, 0x8b, 0x06, 0x00, 0x00, 0xfc, 0x04, 0x00, 0x00,
  0x90, 0x01, 0x00, 0x00, 0x10, 0x06, 0x00, 0x00, 0x1b, 0x04, 0x00, 0x00,
  0x8d, 0x07, 0x00, 0x00, 0xb7, 0x03, 0x00, 0x00, 0x09, 0xfe, 0xff, 0xff,
  0x3a, 0x00, 0x00, 0x00, 0xdc, 0x03, 0x00, 0x00, 0xa3, 0x04, 0x00, 0x00,
  0x54, 0x02, 0x00, 0x00, 0x68, 0x01, 0x00, 0x00, 0x2e, 0x00, 0x00, 0x00,
  0xd5, 0x01, 0x00, 0x00, 0x9c, 0x01, 0x00, 0x00, 0x1e, 0x03, 0x00, 0x00,
  0x6f, 0x07, 0x00, 0x00, 0xbf, 0x03, 0x00, 0x00, 0xd3, 0x00, 0x00, 0x00,
  0x7e, 0x01, 0x00, 0x00, 0x6b, 0x01, 0x00, 0x00, 0xc6, 0xfe, 0xff, 0xff,
  0x04, 0x00, 0x00, 0x00, 0x60, 0x00, 0x00, 0x00, 0x29, 0xd5, 0x29, 0x05,
  0x4e, 0x50, 0xf4, 0x2e, 0x62, 0x1f, 0x17, 0x44, 0xb6, 0xb6, 0xcf, 0x8b,
  0x9c, 0x28, 0xf5, 0xec, 0x24, 0x54, 0x2a, 0xe8, 0xc8, 0x68, 0xd3, 0x19,
  0x72, 0x27, 0xc7, 0x05, 0xda, 0x23, 0x81, 0x95, 0x9f, 0xd8, 0x53, 0x50,
  0x3b, 0x3e, 0x59, 0x29, 0xe7, 0x4f, 0x42, 0xd8, 0xfc, 0x07, 0xdf, 0x4c,
  0x30, 0x0c, 0x18, 0xdb, 0x18, 0xe9, 0x01, 0x90, 0xb7, 0x9c, 0x20, 0xfa,
  0x1a, 0x00, 0x75, 0xbc, 0xcb, 0xd3, 0x9a, 0xac, 0xce, 0xb1, 0xab, 0xa3,
  0x2a, 0xbd, 0x55, 0x3b, 0x0a, 0xea, 0x19, 0xac, 0xaf, 0xfb, 0xa2, 0x04,
  0x3e, 0xf6, 0xb5, 0x25, 0x19, 0xf7, 0xef, 0x65, 0x32, 0xff, 0xff, 0xff,
  0x04, 0x00, 0x00, 0x00, 0x0c, 0x00, 0x00, 0x00, 0x28, 0xfd, 0xff, 0xff,
  0xe6, 0x02, 0x00, 0x00, 0xdb, 0x00, 0x00, 0x00, 0xa0, 0xf9, 0xff, 0xff,
  0xa4, 0xf9, 0xff, 0xff, 0x0f, 0x00, 0x00, 0x00, 0x4d, 0x4c, 0x49, 0x52,
  0x20, 0x43, 0x6f, 0x6e, 0x76, 0x65, 0x72, 0x74, 0x65, 0x64, 0x2e, 0x00,
  0x01, 0x00, 0x00, 0x00, 0x14, 0x00, 0x00, 0x00, 0x00, 0x00, 0x0e, 0x00,
  0x18, 0x00, 0x14, 0x00, 0x10, 0x00, 0x0c, 0x00, 0x08, 0x00, 0x04, 0x00,
  0x0e, 0x00, 0x00, 0x00, 0x14, 0x00, 0x00, 0x00, 0x1c, 0x00, 0x00, 0x00,
  0x40, 0x01, 0x00, 0x00, 0x44, 0x01, 0x00, 0x00, 0x48, 0x01, 0x00, 0x00,
  0x04, 0x00, 0x00, 0x00, 0x6d, 0x61, 0x69, 0x6e, 0x00, 0x00, 0x00, 0x00,
  0x05, 0x00, 0x00, 0x00, 0x08, 0x01, 0x00, 0x00, 0xb8, 0x00, 0x00, 0x00,
  0x70, 0x00, 0x00, 0x00, 0x34, 0x00, 0x00, 0x00, 0x10, 0x00, 0x00, 0x00,
  0x00, 0x00, 0x0a, 0x00, 0x10, 0x00, 0x0c, 0x00, 0x08, 0x00, 0x04, 0x00,
  0x0a, 0x00, 0x00, 0x00, 0x0c, 0x00, 0x00, 0x00, 0x10, 0x00, 0x00, 0x00,
  0x03, 0x00, 0x00, 0x00, 0x01, 0x00, 0x00, 0x00, 0x09, 0x00, 0x00, 0x00,
  0x01, 0x00, 0x00, 0x00, 0x08, 0x00, 0x00, 0x00, 0x92, 0xff, 0xff, 0xff,
  0x1c, 0x00, 0x00, 0x00, 0x00, 0x00, 0x00, 0x09, 0x1c, 0x00, 0x00, 0x00,
  0x20, 0x00, 0x00, 0x00, 0x02, 0x00, 0x00, 0x00, 0x00, 0x00, 0x06, 0x00,
  0x08, 0x00, 0x04, 0x00, 0x06, 0x00, 0x00, 0x00, 0x00, 0x00, 0x80, 0x3f,
  0x01, 0x00, 0x00, 0x00, 0x08, 0x00, 0x00, 0x00, 0x01, 0x00, 0x00, 0x00,
  0x07, 0x00, 0x00, 0x00, 0xca, 0xff, 0xff, 0xff, 0x14, 0x00, 0x00, 0x00,
  0x00, 0x00, 0x00, 0x08, 0x10, 0x00, 0x00, 0x00, 0x14, 0x00, 0x00, 0x00,
  0x01, 0x00, 0x00, 0x00, 0x8c, 0xfa, 0xff, 0xff, 0x01, 0x00, 0x00, 0x00,
  0x07, 0x00, 0x00, 0x00, 0x03, 0x00, 0x00, 0x00, 0x06, 0x00, 0x00, 0x00,
  0x02, 0x00, 0x00, 0x00, 0x01, 0x00, 0x00, 0x00, 0x00, 0x00, 0x0e, 0x00,
  0x1a, 0x00, 0x14, 0x00, 0x10, 0x00, 0x0c, 0x00, 0x0b, 0x00, 0x04, 0x00,
  0x0e, 0x00, 0x00, 0x00, 0x1c, 0x00, 0x00, 0x00, 0x00, 0x00, 0x00, 0x08,
  0x1c, 0x00, 0x00, 0x00, 0x20, 0x00, 0x00, 0x00, 0x01, 0x00, 0x00, 0x00,
  0x00, 0x00, 0x06, 0x00, 0x08, 0x00, 0x07, 0x00, 0x06, 0x00, 0x00, 0x00,
  0x00, 0x00, 0x00, 0x01, 0x01, 0x00, 0x00, 0x00, 0x06, 0x00, 0x00, 0x00,
  0x03, 0x00, 0x00, 0x00, 0x05, 0x00, 0x00, 0x00, 0x04, 0x00, 0x00, 0x00,
  0x03, 0x00, 0x00, 0x00, 0x00, 0x00, 0x0a, 0x00, 0x0c, 0x00, 0x00, 0x00,
  0x08, 0x00, 0x04, 0x00, 0x0a, 0x00, 0x00, 0x00, 0x08, 0x00, 0x00, 0x00,
  0x0c, 0x00, 0x00, 0x00, 0x01, 0x00, 0x00, 0x00, 0x05, 0x00, 0x00, 0x00,
  0x01, 0x00, 0x00, 0x00, 0x00, 0x00, 0x00, 0x00, 0x01, 0x00, 0x00, 0x00,
  0x09, 0x00, 0x00, 0x00, 0x01, 0x00, 0x00, 0x00, 0x00, 0x00, 0x00, 0x00,
  0x0a, 0x00, 0x00, 0x00, 0xa4, 0x04, 0x00, 0x00, 0x20, 0x04, 0x00, 0x00,
  0xa0, 0x03, 0x00, 0x00, 0x3c, 0x03, 0x00, 0x00, 0xd8, 0x02, 0x00, 0x00,
  0x64, 0x02, 0x00, 0x00, 0x88, 0x01, 0x00, 0x00, 0xe4, 0x00, 0x00, 0x00,
  0x60, 0x00, 0x00, 0x00, 0x04, 0x00, 0x00, 0x00, 0x9a, 0xfb, 0xff, 0xff,
  0x00, 0x00, 0x00, 0x01, 0x14, 0x00, 0x00, 0x00, 0x1c, 0x00, 0x00, 0x00,
  0x1c, 0x00, 0x00, 0x00, 0x0a, 0x00, 0x00, 0x00, 0x34, 0x00, 0x00, 0x00,
  0x02, 0x00, 0x00, 0x00, 0xff, 0xff, 0xff, 0xff, 0x03, 0x00, 0x00, 0x00,
  0x84, 0xfb, 0xff, 0xff, 0x1b, 0x00, 0x00, 0x00, 0x53, 0x74, 0x61, 0x74,
  0x65, 0x66, 0x75, 0x6c, 0x50, 0x61, 0x72, 0x74, 0x69, 0x74, 0x69, 0x6f,
  0x6e, 0x65, 0x64, 0x43, 0x61, 0x6c, 0x6c, 0x5f, 0x31, 0x3a, 0x30, 0x00,
  0x02, 0x00, 0x00, 0x00, 0x01, 0x00, 0x00, 0x00, 0x03, 0x00, 0x00, 0x00,
  0x1e, 0xfe, 0xff, 0xff, 0x00, 0x00, 0x00, 0x01, 0x18, 0x00, 0x00, 0x00,
  0x20, 0x00, 0x00, 0x00, 0x40, 0x00, 0x00, 0x00, 0x09, 0x00, 0x00, 0x00,
  0x00, 0x00, 0x00, 0x09, 0x58, 0x00, 0x00, 0x00, 0x02, 0x00, 0x00, 0x00,
  0xff, 0xff, 0xff, 0xff, 0x03, 0x00, 0x00, 0x00, 0x6c, 0xfc, 0xff, 0xff,
  0x08, 0x00, 0x00, 0x00, 0x14, 0x00, 0x00, 0x00, 0x01, 0x00, 0x00, 0x00,
  0x80, 0xff, 0xff, 0xff, 0xff, 0xff, 0xff, 0xff, 0x00, 0x00, 0x00, 0x00,
  0x01, 0x00, 0x00, 0x00, 0x00, 0x00, 0x80, 0x3b, 0x1c, 0x00, 0x00, 0x00,
  0x53, 0x74, 0x61, 0x74, 0x65, 0x66, 0x75, 0x6c, 0x50, 0x61, 0x72, 0x74,
  0x69, 0x74, 0x69, 0x6f, 0x6e, 0x65, 0x64, 0x43, 0x61, 0x6c, 0x6c, 0x5f,
  0x31, 0x3a, 0x30, 0x31, 0x00, 0x00, 0x00, 0x00, 0x02, 0x00, 0x00, 0x00,
  0x01, 0x00, 0x00, 0x00, 0x03, 0x00, 0x00, 0x00, 0x9e, 0xfe, 0xff, 0xff,
  0x00, 0x00, 0x00, 0x01, 0x18, 0x00, 0x00, 0x00, 0x20, 0x00, 0x00, 0x00,
  0x3c, 0x00, 0x00, 0x00, 0x08, 0x00, 0x00, 0x00, 0x00, 0x00, 0x00, 0x09,
  0x78, 0x00, 0x00, 0x00, 0x02, 0x00, 0x00, 0x00, 0xff, 0xff, 0xff, 0xff,
  0x03, 0x00, 0x00, 0x00, 0xec, 0xfc, 0xff, 0xff, 0x08, 0x00, 0x00, 0x00,
  0x10, 0x00, 0x00, 0x00, 0x01, 0x00, 0x00, 0x00, 0x12, 0x00, 0x00, 0x00,
  0x00, 0x00, 0x00, 0x00, 0x01, 0x00, 0x00, 0x00, 0xe6, 0x32, 0x6c, 0x3d,
  0x40, 0x00, 0x00, 0x00, 0x73, 0x65, 0x71, 0x75, 0x65, 0x6e, 0x74, 0x69,
  0x61, 0x6c, 0x5f, 0x31, 0x5f, 0x31, 0x2f, 0x64, 0x65, 0x6e, 0x73, 0x65,
  0x5f, 0x33, 0x5f, 0x31, 0x2f, 0x4d, 0x61, 0x74, 0x4d, 0x75, 0x6c, 0x3b,
  0x73, 0x65, 0x71, 0x75, 0x65, 0x6e, 0x74, 0x69, 0x61, 0x6c, 0x5f, 0x31,
  0x5f, 0x31, 0x2f, 0x64, 0x65, 0x6e, 0x73, 0x65, 0x5f, 0x33, 0x5f, 0x31,
  0x2f, 0x42, 0x69, 0x61, 0x73, 0x41, 0x64, 0x64, 0x00, 0x00, 0x00, 0x00,
  0x02, 0x00, 0x00, 0x00, 0x01, 0x00, 0x00, 0x00, 0x03, 0x00, 0x00, 0x00,
  0x3e, 0xff, 0xff, 0xff, 0x00, 0x00, 0x00, 0x01, 0x18, 0x00, 0x00, 0x00,
  0x20, 0x00, 0x00, 0x00, 0x40, 0x00, 0x00, 0x00, 0x07, 0x00, 0x00, 0x00,
  0x00, 0x00, 0x00, 0x09, 0x98, 0x00, 0x00, 0x00, 0x02, 0x00, 0x00, 0x00,
  0xff, 0xff, 0xff, 0xff, 0x20, 0x00, 0x00, 0x00, 0x8c, 0xfd, 0xff, 0xff,
  0x08, 0x00, 0x00, 0x00, 0x14, 0x00, 0x00, 0x00, 0x01, 0x00, 0x00, 0x00,
  0x80, 0xff, 0xff, 0xff, 0xff, 0xff, 0xff, 0xff, 0x00, 0x00, 0x00, 0x00,
  0x01, 0x00, 0x00, 0x00, 0x69, 0x01, 0x94, 0x3c, 0x5e, 0x00, 0x00, 0x00,
  0x73, 0x65, 0x71, 0x75, 0x65, 0x6e, 0x74, 0x69, 0x61, 0x6c, 0x5f, 0x31,
  0x5f, 0x31, 0x2f, 0x64, 0x65, 0x6e, 0x73, 0x65, 0x5f, 0x32, 0x5f, 0x31,
  0x2f, 0x4d, 0x61, 0x74, 0x4d, 0x75, 0x6c, 0x3b, 0x73, 0x65, 0x71, 0x75,
  0x65, 0x6e, 0x74, 0x69, 0x61, 0x6c, 0x5f, 0x31, 0x5f, 0x31, 0x2f, 0x64,
  0x65, 0x6e, 0x73, 0x65, 0x5f, 0x32, 0x5f, 0x31, 0x2f, 0x52, 0x65, 0x6c,
  0x75, 0x3b, 0x73, 0x65, 0x71, 0x75, 0x65, 0x6e, 0x74, 0x69, 0x61, 0x6c,
  0x5f, 0x31, 0x5f, 0x31, 0x2f, 0x64, 0x65, 0x6e, 0x73, 0x65, 0x5f, 0x32,
  0x5f, 0x31, 0x2f, 0x42, 0x69, 0x61, 0x73, 0x41, 0x64, 0x64, 0x00, 0x00,
  0x02, 0x00, 0x00, 0x00, 0x01, 0x00, 0x00, 0x00, 0x20, 0x00, 0x00, 0x00,
  0x00, 0x00, 0x16, 0x00, 0x20, 0x00, 0x1c, 0x00, 0x1b, 0x00, 0x14, 0x00,
  0x10, 0x00, 0x0c, 0x00, 0x00, 0x00, 0x00, 0x00, 0x08, 0x00, 0x07, 0x00,
  0x16, 0x00, 0x00, 0x00, 0x00, 0x00, 0x00, 0x01, 0x18, 0x00, 0x00, 0x00,
  0x20, 0x00, 0x00, 0x00, 0x40, 0x00, 0x00, 0x00, 0x06, 0x00, 0x00, 0x00,
  0x00, 0x00, 0x00, 0x09, 0x48, 0x00, 0x00, 0x00, 0x02, 0x00, 0x00, 0x00,
  0xff, 0xff, 0xff, 0xff, 0x23, 0x00, 0x00, 0x00, 0x64, 0xfe, 0xff, 0xff,
  0x08, 0x00, 0x00, 0x00, 0x14, 0x00, 0x00, 0x00, 0x01, 0x00, 0x00, 0x00,
  0xf1, 0xff, 0xff, 0xff, 0xff, 0xff, 0xff, 0xff, 0x00, 0x00, 0x00, 0x00,
  0x01, 0x00, 0x00, 0x00, 0x4b, 0x9f, 0xeb, 0x3c, 0x0c, 0x00, 0x00, 0x00,
  0x74, 0x66, 0x6c, 0x2e, 0x71, 0x75, 0x61, 0x6e, 0x74, 0x69, 0x7a, 0x65,
  0x00, 0x00, 0x00, 0x00, 0x02, 0x00, 0x00, 0x00, 0x01, 0x00, 0x00, 0x00,
  0x23, 0x00, 0x00, 0x00, 0xda, 0xfe, 0xff, 0xff, 0x00, 0x00, 0x00, 0x01,
  0x14, 0x00, 0x00, 0x00, 0x30, 0x00, 0x00, 0x00, 0x05, 0x00, 0x00, 0x00,
  0x00, 0x00, 0x00, 0x09, 0x3c, 0x00, 0x00, 0x00, 0xc4, 0xfe, 0xff, 0xff,
  0x08, 0x00, 0x00, 0x00, 0x10, 0x00, 0x00, 0x00, 0x01, 0x00, 0x00, 0x00,
  0x00, 0x00, 0x00, 0x00, 0x00, 0x00, 0x00, 0x00, 0x01, 0x00, 0x00, 0x00,
  0x3b, 0x37, 0xa8, 0x3b, 0x12, 0x00, 0x00, 0x00, 0x74, 0x66, 0x6c, 0x2e,
  0x70, 0x73, 0x65, 0x75, 0x64, 0x6f, 0x5f, 0x71, 0x63, 0x6f, 0x6e, 0x73,
  0x74, 0x33, 0x00, 0x00, 0x02, 0x00, 0x00, 0x00, 0x20, 0x00, 0x00, 0x00,
  0x23, 0x00, 0x00, 0x00, 0x3a, 0xff, 0xff, 0xff, 0x00, 0x00, 0x00, 0x01,
  0x14, 0x00, 0x00, 0x00, 0x34, 0x00, 0x00, 0x00, 0x04, 0x00, 0x00, 0x00,
  0x00, 0x00, 0x00, 0x02, 0x40, 0x00, 0x00, 0x00, 0x24, 0xff, 0xff, 0xff,
  0x08, 0x00, 0x00, 0x00, 0x14, 0x00, 0x00, 0x00, 0x01, 0x00, 0x00, 0x00,
  0x00, 0x00, 0x00, 0x00, 0x00, 0x00, 0x00, 0x00, 0x00, 0x00, 0x00, 0x00,
  0x01, 0x00, 0x00, 0x00, 0x5f, 0xd3, 0x1a, 0x39, 0x12, 0x00, 0x00, 0x00,
  0x74, 0x66, 0x6c, 0x2e, 0x70, 0x73, 0x65, 0x75, 0x64, 0x6f, 0x5f, 0x71,
  0x63, 0x6f, 0x6e, 0x73, 0x74, 0x32, 0x00, 0x00, 0x01, 0x00, 0x00, 0x00,
  0x20, 0x00, 0x00, 0x00, 0x9a, 0xff, 0xff, 0xff, 0x00, 0x00, 0x00, 0x01,
  0x14, 0x00, 0x00, 0x00, 0x34, 0x00, 0x00, 0x00, 0x03, 0x00, 0x00, 0x00,
  0x00, 0x00, 0x00, 0x09, 0x40, 0x00, 0x00, 0x00, 0x84, 0xff, 0xff, 0xff,
  0x08, 0x00, 0x00, 0x00, 0x14, 0x00, 0x00, 0x00, 0x01, 0x00, 0x00, 0x00,
  0x00, 0x00, 0x00, 0x00, 0x00, 0x00, 0x00, 0x00, 0x00, 0x00, 0x00, 0x00,
  0x01, 0x00, 0x00, 0x00, 0xaa, 0x7e, 0xb4, 0x3b, 0x12, 0x00, 0x00, 0x00,
  0x74, 0x66, 0x6c, 0x2e, 0x70, 0x73, 0x65, 0x75, 0x64, 0x6f, 0x5f, 0x71,
  0x63, 0x6f, 0x6e, 0x73, 0x74, 0x31, 0x00, 0x00, 0x02, 0x00, 0x00, 0x00,
  0x03, 0x00, 0x00, 0x00, 0x20, 0x00, 0x00, 0x00, 0x00, 0x00, 0x16, 0x00,
  0x1c, 0x00, 0x18, 0x00, 0x17, 0x00, 0x10, 0x00, 0x0c, 0x00, 0x08, 0x00,
  0x00, 0x00, 0x00, 0x00, 0x00, 0x00, 0x07, 0x00, 0x16, 0x00, 0x00, 0x00,
  0x00, 0x00, 0x00, 0x01, 0x20, 0x00, 0x00, 0x00, 0x3c, 0x00, 0x00, 0x00,
  0x02, 0x00, 0x00, 0x00, 0x00, 0x00, 0x00, 0x02, 0x48, 0x00, 0x00, 0x00,
  0x0c, 0x00, 0x0c, 0x00, 0x00, 0x00, 0x00, 0x00, 0x08, 0x00, 0x04, 0x00,
  0x0c, 0x00, 0x00, 0x00, 0x08, 0x00, 0x00, 0x00, 0x10, 0x00, 0x00, 0x00,
  0x01, 0x00, 0x00, 0x00, 0x00, 0x00, 0x00, 0x00, 0x00, 0x00, 0x00, 0x00,
  0x01, 0x00, 0x00, 0x00, 0x72, 0xb4, 0xd0, 0x38, 0x11, 0x00, 0x00, 0x00,
  0x74, 0x66, 0x6c, 0x2e, 0x70, 0x73, 0x65, 0x75, 0x64, 0x6f, 0x5f, 0x71,
  0x63, 0x6f, 0x6e, 0x73, 0x74, 0x00, 0x00, 0x00, 0x01, 0x00, 0x00, 0x00,
  0x03, 0x00, 0x00, 0x00, 0x00, 0x00, 0x16, 0x00, 0x1c, 0x00, 0x18, 0x00,
  0x00, 0x00, 0x14, 0x00, 0x10, 0x00, 0x0c, 0x00, 0x00, 0x00, 0x00, 0x00,
  0x08, 0x00, 0x07, 0x00, 0x16, 0x00, 0x00, 0x00, 0x00, 0x00, 0x00, 0x01,
  0x14, 0x00, 0x00, 0x00, 0x20, 0x00, 0x00, 0x00, 0x20, 0x00, 0x00, 0x00,
  0x01, 0x00, 0x00, 0x00, 0x3c, 0x00, 0x00, 0x00, 0x02, 0x00, 0x00, 0x00,
  0xff, 0xff, 0xff, 0xff, 0x23, 0x00, 0x00, 0x00, 0x04, 0x00, 0x04, 0x00,
  0x04, 0x00, 0x00, 0x00, 0x1f, 0x00, 0x00, 0x00, 0x73, 0x65, 0x72, 0x76,
  0x69, 0x6e, 0x67, 0x5f, 0x64, 0x65, 0x66, 0x61, 0x75, 0x6c, 0x74, 0x5f,
  0x69, 0x6e, 0x70, 0x75, 0x74, 0x5f, 0x6c, 0x61, 0x79, 0x65, 0x72, 0x5f,
  0x31, 0x3a, 0x30, 0x00, 0x02, 0x00, 0x00, 0x00, 0x01, 0x00, 0x00, 0x00,
  0x23, 0x00, 0x00, 0x00, 0x04, 0x00, 0x00, 0x00, 0x58, 0x00, 0x00, 0x00,
  0x38, 0x00, 0x00, 0x00, 0x18, 0x00, 0x00, 0x00, 0x04, 0x00, 0x00, 0x00,
  0xe0, 0xff, 0xff, 0xff, 0x06, 0x00, 0x00, 0x00, 0x02, 0x00, 0x00, 0x00,
  0x00, 0x00, 0x00, 0x06, 0xf0, 0xff, 0xff, 0xff, 0x19, 0x00, 0x00, 0x00,
  0x02, 0x00, 0x00, 0x00, 0x00, 0x00, 0x00, 0x19, 0x0c, 0x00, 0x10, 0x00,
  0x0f, 0x00, 0x00, 0x00, 0x08, 0x00, 0x04, 0x00, 0x0c, 0x00, 0x00, 0x00,
  0x09, 0x00, 0x00, 0x00, 0x04, 0x00, 0x00, 0x00, 0x00, 0x00, 0x00, 0x09,
  0x0c, 0x00, 0x0c, 0x00, 0x0b, 0x00, 0x00, 0x00, 0x00, 0x00, 0x04, 0x00,
  0x0c, 0x00, 0x00, 0x00, 0x72, 0x00, 0x00, 0x00, 0x00, 0x00, 0x00, 0x72
};

const unsigned int stroke_type_model_data_len = 3744;

#endif // STROKE_TYPE_MODEL_DATA_H
